{
    "<PAD>": 0,
    "<BOS>": 1,
    "<EOS>": 2,
    " ": 3,
    "%": 4,
    "'": 5,
    "(": 6,
    ")": 7,
    "*": 8,
    "+": 9,
    ",": 10,
    "-": 11,
    ".": 12,
    "/": 13,
    "0": 14,
    "1": 15,
    "2": 16,
    "3": 17,
    "4": 18,
    "5": 19,
    "6": 20,
    "7": 21,
    "8": 22,
    "9": 23,
    ":": 24,
    ">": 25,
    "?": 26,
    "@": 27,
    "A": 28,
    "B": 29,
    "C": 30,
    "D": 31,
    "E": 32,
    "F": 33,
    "G": 34,
    "H": 35,
    "I": 36,
    "J": 37,
    "K": 38,
    "L": 39,
    "M": 40,
    "N": 41,
    "O": 42,
    "P": 43,
    "Q": 44,
    "R": 45,
    "S": 46,
    "T": 47,
    "U": 48,
    "V": 49,
    "W": 50,
    "X": 51,
    "Y": 52,
    "Z": 53,
    "_": 54,
    "a": 55,
    "b": 56,
    "c": 57,
    "d": 58,
    "e": 59,
    "f": 60,
    "g": 61,
    "h": 62,
    "i": 63,
    "j": 64,
    "k": 65,
    "l": 66,
    "m": 67,
    "n": 68,
    "o": 69,
    "p": 70,
    "q": 71,
    "r": 72,
    "s": 73,
    "t": 74,
    "u": 75,
    "v": 76,
    "w": 77,
    "x": 78,
    "y": 79,
    "z": 80,
    "े": 81,
    "⁨": 82,
    "⁩": 83,
    "❤": 84,
    "⠄": 85,
    "⣿": 86,
    "️": 87,
    "👍": 88,
    "💀": 89,
    "💔": 90,
    "💦": 91,
    "🔥": 92,
    "😂": 93,
    "😊": 94,
    "😋": 95,
    "😎": 96,
    "😔": 97,
    "😘": 98,
    "😨": 99,
    "😭": 100,
    "😱": 101,
    "🙏": 102,
    "🛐": 103,
    "🤡": 104,
    "🤣": 105,
    "🤫": 106,
    "🥲": 107,
    "🥳": 108,
    "🥹": 109,
    "ha": 110,
    "hi": 111,
    "ar": 112,
    "hai": 113,
    "aa": 114,
    "he": 115,
    "na": 116,
    "ya": 117,
    "ho": 118,
    "me": 119,
    "ga": 120,
    "te": 121,
    "ra": 122,
    "le": 123,
    "to": 124,
    "ta": 125,
    "se": 126,
    "ne": 127,
    "de": 128,
    "ke": 129,
    "ma": 130,
    "re": 131,
    "la": 132,
    "in": 133,
    "ka": 134,
    "kar": 135,
    "ye": 136,
    "sa": 137,
    "ba": 138,
    "is": 139,
    "ko": 140,
    "bhi": 141,
    "hu": 142,
    "ki": 143,
    "li": 144,
    "on": 145,
    "di": 146,
    "toh": 147,
    "ge": 148,
    "tha": 149,
    "ti": 150,
    "an": 151,
    "pa": 152,
    "ja": 153,
    "cha": 154,
    "lo": 155,
    "wa": 156,
    "pe": 157,
    "ch": 158,
    "it": 159,
    "us": 160,
    "bo": 161,
    "nahi": 162,
    "tu": 163,
    "mai": 164,
    "ur": 165,
    "da": 166,
    "un": 167,
    "or": 168,
    "kya": 169,
    "st": 170,
    "ro": 171,
    "ri": 172,
    "th": 173,
    "nhi": 174,
    "ll": 175,
    "ai": 176,
    "😂😂": 177,
    "Me": 178,
    "be": 179,
    "oh": 180,
    "ni": 181,
    "ing": 182,
    "@⁨": 183,
    "ve": 184,
    "ir": 185,
    "meh": 186,
    "bhai": 187,
    "oo": 188,
    "ce": 189,
    "nd": 190,
    "mi": 191,
    "kh": 192,
    "do": 193,
    "thi": 194,
    "the": 195,
    "ss": 196,
    "al": 197,
    "ut": 198,
    "ky": 199,
    "at": 200,
    "uch": 201,
    "raha": 202,
    "co": 203,
    "ab": 204,
    "har": 205,
    "hoga": 206,
    "par": 207,
    "baa": 208,
    "kha": 209,
    "sab": 210,
    "rha": 211,
    "khe": 212,
    "Ye": 213,
    "Bhai": 214,
    "aur": 215,
    "Tu": 216,
    "am": 217,
    "kr": 218,
    "si": 219,
    "nge": 220,
    "so": 221,
    "liye": 222,
    "bhe": 223,
    "mar": 224,
    "ted": 225,
    "ise": 226,
    "ter": 227,
    "no": 228,
    "bol": 229,
    "diya": 230,
    "00": 231,
    "Thi": 232,
    "ad": 233,
    "nt": 234,
    "gi": 235,
    "Mai": 236,
    "was": 237,
    "and": 238,
    "mes": 239,
    "ck": 240,
    "je": 241,
    "ek": 242,
    "ahi": 243,
    "che": 244,
    "jhe": 245,
    "yega": 246,
    "hit": 247,
    "as": 248,
    "hota": 249,
    "tion": 250,
    "are": 251,
    "kyu": 252,
    "ap": 253,
    "@⁨A": 254,
    "hot": 255,
    "sh": 256,
    "lag": 257,
    "😭😭": 258,
    "man": 259,
    "mm": 260,
    "sage": 261,
    "ks": 262,
    "jo": 263,
    "message": 264,
    "dele": 265,
    "log": 266,
    "chu": 267,
    "dekh": 268,
    "gaya": 269,
    "kuch": 270,
    "cho": 271,
    "Us": 272,
    "This": 273,
    "deleted": 274,
    "mo": 275,
    "khel": 276,
    "jaa": 277,
    "ul": 278,
    "po": 279,
    "ry": 280,
    "mat": 281,
    "ac": 282,
    "Te": 283,
    "mil": 284,
    "ish": 285,
    "fe": 286,
    "fir": 287,
    "Ha": 288,
    "ly": 289,
    "unga": 290,
    "of": 291,
    "De": 292,
    "😂😂😂😂": 293,
    "um": 294,
    "ca": 295,
    "fi": 296,
    "saa": 297,
    "wo": 298,
    "con": 299,
    "mein": 300,
    "sak": 301,
    "bhej": 302,
    "for": 303,
    "yan": 304,
    "baat": 305,
    "up": 306,
    "kit": 307,
    "gar": 308,
    "es": 309,
    "ru": 310,
    "rv": 311,
    "bola": 312,
    "woh": 313,
    "chal": 314,
    "No": 315,
    "laga": 316,
    "mp": 317,
    "lega": 318,
    "aan": 319,
    "Aa": 320,
    "we": 321,
    "ara": 322,
    "yada": 323,
    "koi": 324,
    "yi": 325,
    "pu": 326,
    "tharv": 327,
    "kiya": 328,
    "isi": 329,
    "hir": 330,
    "su": 331,
    "kal": 332,
    "per": 333,
    "karna": 334,
    "mu": 335,
    "pata": 336,
    "hua": 337,
    "??": 338,
    "ud": 339,
    "hle": 340,
    "tak": 341,
    "dega": 342,
    "bi": 343,
    "Kya": 344,
    "go": 345,
    "10": 346,
    "itna": 347,
    "mere": 348,
    "pro": 349,
    "ty": 350,
    "pad": 351,
    "Nahi": 352,
    "ree": 353,
    "min": 354,
    "Woh": 355,
    "Yeh": 356,
    "tere": 357,
    "ng": 358,
    "bohot": 359,
    "vi": 360,
    "tho": 361,
    "yeh": 362,
    "rahe": 363,
    "mei": 364,
    "jaye": 365,
    "van": 366,
    "kare": 367,
    "ball": 368,
    "abhi": 369,
    "Is": 370,
    "lab": 371,
    "hai?": 372,
    "yo": 373,
    "may": 374,
    "aise": 375,
    "qu": 376,
    "gh": 377,
    "Ab": 378,
    "bha": 379,
    "ct": 380,
    "kon": 381,
    "Hmm": 382,
    "bata": 383,
    "ci": 384,
    "Par": 385,
    "bas": 386,
    "ban": 387,
    "du": 388,
    "ket": 389,
    "liya": 390,
    "vansh": 391,
    "g⁩": 392,
    "Oh": 393,
    "ishit": 394,
    "jayega": 395,
    "30": 396,
    "thik": 397,
    "han": 398,
    "Aur": 399,
    "kaa": 400,
    "bana": 401,
    "Kar": 402,
    "ush": 403,
    "kaise": 404,
    "But": 405,
    "pla": 406,
    "pi": 407,
    "ryan": 408,
    "day": 409,
    "Lo": 410,
    "hone": 411,
    "Bo": 412,
    "ls": 413,
    "Mere": 414,
    "zyada": 415,
    "ran": 416,
    "Abhi": 417,
    "Mera": 418,
    "chi": 419,
    "Sab": 420,
    "lite": 421,
    "oi": 422,
    "⣿⣿": 423,
    "use": 424,
    "om": 425,
    "baje": 426,
    "not": 427,
    "sha": 428,
    "kshit": 429,
    "baar": 430,
    "It": 431,
    "sath": 432,
    "mera": 433,
    "paa": 434,
    "baad": 435,
    "Sa": 436,
    "khu": 437,
    "Toh": 438,
    "va": 439,
    "naa": 440,
    "Cha": 441,
    "rko": 442,
    "rana": 443,
    "Li": 444,
    "ver": 445,
    "ble": 446,
    "der": 447,
    "irf": 448,
    "Ba": 449,
    "Pa": 450,
    "din": 451,
    "tum": 452,
    "ex": 453,
    "cg": 454,
    "Koi": 455,
    "tera": 456,
    "ed": 457,
    "Maine": 458,
    "yaa": 459,
    "nga": 460,
    "bu": 461,
    "ts": 462,
    "phir": 463,
    "tel": 464,
    "kam": 465,
    "ranay": 466,
    "rhe": 467,
    "wala": 468,
    "chahi": 469,
    "chahiye": 470,
    "id": 471,
    "sakta": 472,
    "but": 473,
    "und": 474,
    "aaya": 475,
    "wi": 476,
    "yush": 477,
    "chod": 478,
    "pre": 479,
    "itra": 480,
    "karni": 481,
    "Ho": 482,
    "top": 483,
    "Ma": 484,
    "don": 485,
    "maine": 486,
    "wit": 487,
    "ee": 488,
    "pp": 489,
    "daa": 490,
    "Kr": 491,
    "hain": 492,
    "Gar": 493,
    "all": 494,
    "..": 495,
    "Haan": 496,
    "dena": 497,
    "50": 498,
    "mujhe": 499,
    "lu": 500,
    "sem": 501,
    "Ok": 502,
    "karne": 503,
    "Ek": 504,
    "shi": 505,
    "aaja": 506,
    "cs": 507,
    "ker": 508,
    "Krish": 509,
    "krish": 510,
    "acha": 511,
    "time": 512,
    "karte": 513,
    "Mu": 514,
    "Mat": 515,
    "lea": 516,
    "karta": 517,
    "bet": 518,
    "hai,": 519,
    "aaj": 520,
    "paas": 521,
    "comp": 522,
    "karo": 523,
    "mao": 524,
    "pehle": 525,
    "iss": 526,
    "ment": 527,
    "room": 528,
    "waa": 529,
    "rp": 530,
    "aat": 531,
    "Garg⁩": 532,
    "ting": 533,
    "one": 534,
    "Are": 535,
    "gaa": 536,
    "Ky": 537,
    "kisi": 538,
    "ghar": 539,
    "tra": 540,
    "reat": 541,
    "To": 542,
    "kya?": 543,
    "gya": 544,
    "agar": 545,
    "Rishit": 546,
    "tune": 547,
    "aata": 548,
    "sta": 549,
    "bad": 550,
    "hut": 551,
    "sahi": 552,
    "cle": 553,
    "hogaya": 554,
    "ard": 555,
    "wale": 556,
    "sirf": 557,
    "its": 558,
    "tujhe": 559,
    "In": 560,
    "yushman": 561,
    "padega": 562,
    "reh": 563,
    "Parth": 564,
    "karega": 565,
    "hat": 566,
    "Yes": 567,
    "Tan": 568,
    "🤣🤣": 569,
    "😂😂😂😂😂😂😂😂": 570,
    "sakte": 571,
    "taa": 572,
    "Tanmay": 573,
    "er": 574,
    "gu": 575,
    "fa": 576,
    "So": 577,
    "kitna": 578,
    "this": 579,
    "La": 580,
    "kis": 581,
    "goo": 582,
    "@⁨Atharv": 583,
    "Kul": 584,
    "Kulkarni": 585,
    "Kulkarni⁩": 586,
    "app": 587,
    "kitne": 588,
    "Fir": 589,
    "eve": 590,
    "Wo": 591,
    "itne": 592,
    "chuti": 593,
    "20": 594,
    "cy": 595,
    "gra": 596,
    "Aaj": 597,
    "hy": 598,
    "karke": 599,
    "ritra": 600,
    "hum": 601,
    "gaye": 602,
    "ber": 603,
    "nce": 604,
    "test": 605,
    "bak": 606,
    "ok": 607,
    "apne": 608,
    "meri": 609,
    "Lite": 610,
    "🙏🙏": 611,
    "Itna": 612,
    "Devansh": 613,
    "bc": 614,
    "Pranay": 615,
    "with": 616,
    "puch": 617,
    "Haa": 618,
    "kka": 619,
    "sg": 620,
    "Lmao": 621,
    "et": 622,
    "15": 623,
    "khud": 624,
    "Kal": 625,
    "Cho": 626,
    "fu": 627,
    "kardiya": 628,
    "😭😭😭😭": 629,
    "saath": 630,
    "Acha": 631,
    "dost": 632,
    "Kon": 633,
    "tan": 634,
    "kaha": 635,
    "sti": 636,
    "ah": 637,
    "Kuch": 638,
    "yy": 639,
    "tal": 640,
    "nal": 641,
    "year": 642,
    "ff": 643,
    "teri": 644,
    "Bhe": 645,
    "za": 646,
    "rs": 647,
    "uska": 648,
    "en": 649,
    "will": 650,
    "Pu": 651,
    "Bas": 652,
    "ii": 653,
    "kab": 654,
    "aha": 655,
    "gand": 656,
    "same": 657,
    "nai": 658,
    "wor": 659,
    "lete": 660,
    "Meh": 661,
    "star": 662,
    "Si": 663,
    "aaye": 664,
    "daal": 665,
    "isa": 666,
    "Mujhe": 667,
    "treat": 668,
    "ez": 669,
    "better": 670,
    "Bohot": 671,
    "usko": 672,
    "av": 673,
    "Chu": 674,
    "voh": 675,
    "deta": 676,
    "nikal": 677,
    "And": 678,
    "dono": 679,
    "oot": 680,
    "100": 681,
    "out": 682,
    "ght": 683,
    "marks": 684,
    "pas": 685,
    "Kyu": 686,
    "Tere": 687,
    "utha": 688,
    "ootball": 689,
    "can": 690,
    "diye": 691,
    "hari": 692,
    "ps": 693,
    "kaam": 694,
    "sam": 695,
    "padh": 696,
    "ssi": 697,
    "hogi": 698,
    "kho": 699,
    "lena": 700,
    "usse": 701,
    "Matlab": 702,
    "ys": 703,
    "lenge": 704,
    "il": 705,
    "Un": 706,
    "Tum": 707,
    "game": 708,
    "parth": 709,
    "call": 710,
    "saare": 711,
    "read": 712,
    "Ga": 713,
    "you": 714,
    "Nhi": 715,
    "grp": 716,
    "devansh": 717,
    "wing": 718,
    "lege": 719,
    "'t": 720,
    "end": 721,
    "paise": 722,
    "ant": 723,
    ".5": 724,
    "sto": 725,
    "fo": 726,
    "num": 727,
    "aayega": 728,
    "cycle": 729,
    "mon": 730,
    "ayushman": 731,
    "ldi": 732,
    "jh": 733,
    "dunga": 734,
    "Karthik": 735,
    "alag": 736,
    "rhaa": 737,
    "Co": 738,
    "12": 739,
    "uske": 740,
    "aar": 741,
    "cket": 742,
    "maan": 743,
    "wn": 744,
    "hh": 745,
    "Sahi": 746,
    "pho": 747,
    "Meri": 748,
    "ham": 749,
    "mt": 750,
    "ketball": 751,
    "ram": 752,
    "op": 753,
    "Al": 754,
    "Kisi": 755,
    "ice": 756,
    "ft": 757,
    "cal": 758,
    "line": 759,
    "Be": 760,
    "thing": 761,
    "Agar": 762,
    "that": 763,
    "logo": 764,
    "Re": 765,
    "number": 766,
    "Jo": 767,
    "now": 768,
    "chala": 769,
    "gayi": 770,
    "cu": 771,
    "dekha": 772,
    "sc": 773,
    "pass": 774,
    "rea": 775,
    "air": 776,
    "Go": 777,
    "hote": 778,
    "ust": 779,
    "Waise": 780,
    "cra": 781,
    "khelte": 782,
    "Same": 783,
    "ig": 784,
    "ready": 785,
    "Choud": 786,
    "leye": 787,
    "upta": 788,
    "ent": 789,
    "ding": 790,
    "pura": 791,
    "lin": 792,
    "Phir": 793,
    "sk": 794,
    "karde": 795,
    "ner": 796,
    "cide": 797,
    "ist": 798,
    "Tune": 799,
    "hen": 800,
    "pay": 801,
    "@⁨Aritra": 802,
    "Choudhari": 803,
    "Choudhari⁩": 804,
    "khi": 805,
    "gle": 806,
    "Happ": 807,
    "Happy": 808,
    "Uske": 809,
    "jaldi": 810,
    "lani": 811,
    "hoti": 812,
    "chutiya": 813,
    "saal": 814,
    "ari": 815,
    "most": 816,
    "aryan": 817,
    "lage": 818,
    "Kitne": 819,
    "thodi": 820,
    "aad": 821,
    "atharv": 822,
    "ked": 823,
    "usme": 824,
    "bat": 825,
    "poo": 826,
    "Aryan": 827,
    "@⁨Aayushman": 828,
    "@⁨Aayushman⁩": 829,
    "stel": 830,
    "Atharv": 831,
    "Kis": 832,
    "Gupta": 833,
    "com": 834,
    "rank": 835,
    "@⁨Akshit": 836,
    "msg": 837,
    "rd": 838,
    "na?": 839,
    "match": 840,
    "lease": 841,
    "Merko": 842,
    "Teri": 843,
    "@⁨Devansh": 844,
    "Gupta⁩": 845,
    "waise": 846,
    "like": 847,
    "aisa": 848,
    "pt": 849,
    "'s": 850,
    "Le": 851,
    "phone": 852,
    "vo": 853,
    "el": 854,
    "chud": 855,
    "chodi": 856,
    "lock": 857,
    "isme": 858,
    "tions": 859,
    "Do": 860,
    "ths": 861,
    "Tera": 862,
    "leta": 863,
    "tor": 864,
    "bits": 865,
    "rishit": 866,
    "roup": 867,
    "por": 868,
    "mate": 869,
    "bhenga": 870,
    "bud": 871,
    "⣿⣿⣿⣿": 872,
    "pls": 873,
    "Patel": 874,
    "500": 875,
    "Ar": 876,
    "aana": 877,
    "join": 878,
    "gy": 879,
    "usne": 880,
    "any": 881,
    "pur": 882,
    "lb": 883,
    "😂😂😂": 884,
    "@⁨Aryan": 885,
    "Patel⁩": 886,
    "lat": 887,
    "every": 888,
    "mare": 889,
    "photo": 890,
    "ther": 891,
    "dhar": 892,
    "rr": 893,
    "bhar": 894,
    "ski": 895,
    "Lol": 896,
    "Wahi": 897,
    "ity": 898,
    "tam": 899,
    "kabhi": 900,
    "football": 901,
    "jayegi": 902,
    "1st": 903,
    "jee": 904,
    "Ham": 905,
    "ppl": 906,
    "@⁨Rishit": 907,
    "Siha": 908,
    "Sihag⁩": 909,
    "tive": 910,
    "Abe": 911,
    "nk": 912,
    "Ac": 913,
    "raat": 914,
    "yaar": 915,
    "chup": 916,
    "rah": 917,
    "res": 918,
    "her": 919,
    "ny": 920,
    "gree": 921,
    "11": 922,
    "merko": 923,
    "Ap": 924,
    "zy": 925,
    "poker": 926,
    "nior": 927,
    "war": 928,
    "arna": 929,
    "@⁨Krish": 930,
    "load": 931,
    "accha": 932,
    "maa": 933,
    "lau": 934,
    "jaata": 935,
    "⠄⠄": 936,
    "tt": 937,
    "pri": 938,
    "lly": 939,
    "hostel": 940,
    "Bc": 941,
    "dha": 942,
    "Fu": 943,
    "then": 944,
    "milega": 945,
    "Pi": 946,
    "down": 947,
    "itni": 948,
    "hn": 949,
    "meko": 950,
    "dy": 951,
    "change": 952,
    "pucha": 953,
    "khelna": 954,
    "rab": 955,
    "bro": 956,
    "jao": 957,
    "wali": 958,
    "likh": 959,
    "Voh": 960,
    "irth": 961,
    "karle": 962,
    "idhar": 963,
    "pta": 964,
    "gyi": 965,
    "CS": 966,
    "start": 967,
    "Uska": 968,
    "my": 969,
    "sor": 970,
    "tanmay": 971,
    "au": 972,
    "dikh": 973,
    "red": 974,
    "hr": 975,
    "isse": 976,
    "Usse": 977,
    "irthday": 978,
    "tab": 979,
    "gyaa": 980,
    "walo": 981,
    "Akshit": 982,
    "papa": 983,
    "atte": 984,
    "Va": 985,
    "uski": 986,
    "mess": 987,
    "good": 988,
    "ugh": 989,
    "new": 990,
    "fere": 991,
    "ake": 992,
    "Sha": 993,
    "low": 994,
    "team": 995,
    "ji": 996,
    "ep": 997,
    "chalega": 998,
    "best": 999,
    "bio": 1000,
    "late": 1001,
    "sun": 1002,
    "vide": 1003,
    "khelne": 1004,
    "jab": 1005,
    "uth": 1006,
    "bs": 1007,
    "have": 1008,
    "loo": 1009,
    "cheez": 1010,
    "bar": 1011,
    "lap": 1012,
    "rhi": 1013,
    "side": 1014,
    "cause": 1015,
    "has": 1016,
    "ques": 1017,
    "party": 1018,
    "tik": 1019,
    "Ki": 1020,
    "Thike": 1021,
    "Se": 1022,
    "dit": 1023,
    "ning": 1024,
    "Na": 1025,
    "check": 1026,
    "senior": 1027,
    "hora": 1028,
    "Chal": 1029,
    "Shar": 1030,
    "lagta": 1031,
    "2nd": 1032,
    "laptop": 1033,
    "terko": 1034,
    "dete": 1035,
    "life": 1036,
    "Not": 1037,
    "xt": 1038,
    "Tujhe": 1039,
    "bta": 1040,
    "chai": 1041,
    "fun": 1042,
    "think": 1043,
    "sho": 1044,
    "peh": 1045,
    "🥳🥳": 1046,
    "last": 1047,
    "aara": 1048,
    "first": 1049,
    "achi": 1050,
    "link": 1051,
    "jyada": 1052,
    "khatam": 1053,
    "ld": 1054,
    "Meko": 1055,
    "uss": 1056,
    "ser": 1057,
    "@⁨Pranay": 1058,
    "denge": 1059,
    "Usme": 1060,
    "waale": 1061,
    "dar": 1062,
    "tri": 1063,
    "mila": 1064,
    "dd": 1065,
    "majh": 1066,
    "jayenge": 1067,
    "@⁨Parth": 1068,
    "Sharma": 1069,
    "Sharma⁩": 1070,
    "isliye": 1071,
    "🥲🥲": 1072,
    "IT": 1073,
    "back": 1074,
    "😂😂😂😂😂😂😂😂😂😂😂😂😂😂😂😂": 1075,
    "abb": 1076,
    "ney": 1077,
    "ky?": 1078,
    "sb": 1079,
    "kharab": 1080,
    "ron": 1081,
    "hmm": 1082,
    "@⁨Tanmay": 1083,
    "@⁨Tanmay⁩": 1084,
    "Aise": 1085,
    "urse": 1086,
    "uld": 1087,
    "kin": 1088,
    "shy": 1089,
    "mari": 1090,
    "sat": 1091,
    "lode": 1092,
    "place": 1093,
    "ns": 1094,
    "AI": 1095,
    "Che": 1096,
    "dis": 1097,
    "ze": 1098,
    "@⁨Karthik": 1099,
    "Nair": 1100,
    "Nair⁩": 1101,
    "Dekh": 1102,
    "ason": 1103,
    "lg": 1104,
    "chalte": 1105,
    "lele": 1106,
    "ku": 1107,
    "upar": 1108,
    "gal": 1109,
    "3rd": 1110,
    "mtlb": 1111,
    "here": 1112,
    "bhejo": 1113,
    "mara": 1114,
    "Kaha": 1115,
    "dikha": 1116,
    "kyuki": 1117,
    "bh": 1118,
    "Bi": 1119,
    "lol": 1120,
    "Fuck": 1121,
    "Usko": 1122,
    "yaad": 1123,
    "Di": 1124,
    "Sor": 1125,
    "max": 1126,
    "gan": 1127,
    "40": 1128,
    "cri": 1129,
    "tut": 1130,
    "uga": 1131,
    "Ra": 1132,
    "sion": 1133,
    "col": 1134,
    "decide": 1135,
    "300": 1136,
    "quant": 1137,
    "already": 1138,
    "teko": 1139,
    "rat": 1140,
    "hal": 1141,
    "get": 1142,
    "kyaa": 1143,
    "af": 1144,
    "send": 1145,
    "Nah": 1146,
    "arak": 1147,
    "birthday": 1148,
    "Kam": 1149,
    "Ya": 1150,
    "amp": 1151,
    "please": 1152,
    "dekhna": 1153,
    "Ca": 1154,
    "gye": 1155,
    "tf": 1156,
    "Hai": 1157,
    "only": 1158,
    "pranay": 1159,
    "bhu": 1160,
    "likha": 1161,
    "form": 1162,
    "ture": 1163,
    "hun": 1164,
    "vie": 1165,
    "Pe": 1166,
    "whi": 1167,
    "bk": 1168,
    "main": 1169,
    "🔥🔥": 1170,
    "just": 1171,
    "Ro": 1172,
    "ruk": 1173,
    "farak": 1174,
    "Pad": 1175,
    "Bha": 1176,
    "grade": 1177,
    "maar": 1178,
    "bula": 1179,
    "shyd": 1180,
    "soch": 1181,
    "jaunga": 1182,
    "cor": 1183,
    "matlab": 1184,
    "free": 1185,
    "got": 1186,
    "rahi": 1187,
    "8.": 1188,
    "naam": 1189,
    "spe": 1190,
    "chaiye": 1191,
    "bakwas": 1192,
    "akshit": 1193,
    "karunga": 1194,
    "sabse": 1195,
    "karra": 1196,
    "done": 1197,
    "bhad": 1198,
    "hta": 1199,
    "Kitna": 1200,
    "Pro": 1201,
    "ance": 1202,
    "bah": 1203,
    "cla": 1204,
    "ler": 1205,
    "Kha": 1206,
    "ction": 1207,
    "200": 1208,
    "mer": 1209,
    "Ghar": 1210,
    "band": 1211,
    "wan": 1212,
    "mail": 1213,
    "cker": 1214,
    "final": 1215,
    "mana": 1216,
    "17": 1217,
    "cro": 1218,
    "way": 1219,
    "stu": 1220,
    "bahut": 1221,
    "hoon": 1222,
    "lakh": 1223,
    "perce": 1224,
    "Har": 1225,
    "shu": 1226,
    "book": 1227,
    "ream": 1228,
    "yad": 1229,
    "He": 1230,
    "basketball": 1231,
    "by": 1232,
    "come": 1233,
    "leke": 1234,
    "video": 1235,
    "pl": 1236,
    "isleye": 1237,
    "2-": 1238,
    "aayi": 1239,
    "Khu": 1240,
    "rac": 1241,
    "table": 1242,
    "16": 1243,
    "coo": 1244,
    "lene": 1245,
    "apna": 1246,
    "Yo": 1247,
    "pilani": 1248,
    "poora": 1249,
    "Ex": 1250,
    "Po": 1251,
    "off": 1252,
    "ghan": 1253,
    "hona": 1254,
    "aati": 1255,
    "jaise": 1256,
    "ally": 1257,
    "lawa": 1258,
    "Sirf": 1259,
    "qui": 1260,
    "ans": 1261,
    "she": 1262,
    "aap": 1263,
    "lad": 1264,
    "bv": 1265,
    "rue": 1266,
    "spo": 1267,
    "aagaya": 1268,
    "wer": 1269,
    "jis": 1270,
    "jj": 1271,
    "jata": 1272,
    "😭😭😭": 1273,
    "act": 1274,
    "coun": 1275,
    "pan": 1276,
    "work": 1277,
    "ghu": 1278,
    "inc": 1279,
    "ache": 1280,
    "jha": 1281,
    "Ban": 1282,
    "hui": 1283,
    "lon": 1284,
    "oooo": 1285,
    "mile": 1286,
    "Tab": 1287,
    "Basketball": 1288,
    "lot": 1289,
    "sur": 1290,
    "int": 1291,
    "ference": 1292,
    "ous": 1293,
    "h?": 1294,
    "soci": 1295,
    "EE": 1296,
    "Pura": 1297,
    "download": 1298,
    "kke": 1299,
    "Kab": 1300,
    "Jab": 1301,
    "fri": 1302,
    "fro": 1303,
    "his": 1304,
    "ind": 1305,
    "aane": 1306,
    "they": 1307,
    "next": 1308,
    "Wa": 1309,
    "Su": 1310,
    "lve": 1311,
    "aritra": 1312,
    "GO": 1313,
    "vr": 1314,
    "wahi": 1315,
    "lekin": 1316,
    "Pata": 1317,
    "ampus": 1318,
    "py": 1319,
    "bus": 1320,
    "miss": 1321,
    "You": 1322,
    "A-": 1323,
    "group": 1324,
    "ak": 1325,
    "set": 1326,
    "ue": 1327,
    "Top": 1328,
    "asy": 1329,
    "contest": 1330,
    "1k": 1331,
    "jate": 1332,
    "laude": 1333,
    "Mess": 1334,
    "mark": 1335,
    "site": 1336,
    "plan": 1337,
    "from": 1338,
    "what": 1339,
    "subah": 1340,
    "chalta": 1341,
    "Pehle": 1342,
    "mal": 1343,
    "ten": 1344,
    "jana": 1345,
    "mmy": 1346,
    "We": 1347,
    "khelega": 1348,
    "dene": 1349,
    "dia": 1350,
    "roo": 1351,
    "Khud": 1352,
    "compre": 1353,
    "take": 1354,
    "kitni": 1355,
    "rakh": 1356,
    "ine": 1357,
    "nc": 1358,
    "men": 1359,
    "ayega": 1360,
    "pahle": 1361,
    "kara": 1362,
    "hojayega": 1363,
    "pr": 1364,
    "kyun": 1365,
    "play": 1366,
    "Bol": 1367,
    "🤣🤣🤣🤣": 1368,
    "Iss": 1369,
    "fast": 1370,
    "some": 1371,
    "dea": 1372,
    "padta": 1373,
    "rehta": 1374,
    "cricket": 1375,
    "money": 1376,
    "fit": 1377,
    "pref": 1378,
    "valo": 1379,
    "Saa": 1380,
    "attend": 1381,
    "who": 1382,
    "if": 1383,
    "know": 1384,
    "dal": 1385,
    "fore": 1386,
    "Aritra": 1387,
    "hogya": 1388,
    "Apne": 1389,
    "aake": 1390,
    "kidhar": 1391,
    "bee": 1392,
    "galat": 1393,
    "sabko": 1394,
    "fer": 1395,
    "parent": 1396,
    "On": 1397,
    "bahar": 1398,
    "gaand": 1399,
    "gue": 1400,
    "baas": 1401,
    "online": 1402,
    "uk": 1403,
    "sub": 1404,
    "Mene": 1405,
    "also": 1406,
    "Also": 1407,
    "rate": 1408,
    "pen": 1409,
    "ani": 1410,
    "24": 1411,
    "imp": 1412,
    "Aisa": 1413,
    "bait": 1414,
    "tro": 1415,
    "playe": 1416,
    "bolraha": 1417,
    "bache": 1418,
    "mene": 1419,
    "karenge": 1420,
    "shuru": 1421,
    "gen": 1422,
    "placement": 1423,
    "Abb": 1424,
    "1500": 1425,
    "Valo": 1426,
    "gis": 1427,
    "dekhe": 1428,
    "don't": 1429,
    "lhi": 1430,
    "more": 1431,
    "dus": 1432,
    "ece": 1433,
    "wapas": 1434,
    "nega": 1435,
    "Isme": 1436,
    "ini": 1437,
    "chat": 1438,
    "jaga": 1439,
    "story": 1440,
    "dege": 1441,
    "tes": 1442,
    "rn": 1443,
    "iit": 1444,
    "ship": 1445,
    "make": 1446,
    "lga": 1447,
    "den": 1448,
    "waala": 1449,
    "Thik": 1450,
    "What": 1451,
    "Goo": 1452,
    "loog": 1453,
    "gym": 1454,
    "cc": 1455,
    "blem": 1456,
    "karwa": 1457,
    "ds": 1458,
    "ary": 1459,
    "Con": 1460,
    "Hu": 1461,
    "Bhej": 1462,
    "kisne": 1463,
    "cuto": 1464,
    "aate": 1465,
    "Isse": 1466,
    "percent": 1467,
    "batch": 1468,
    "Jee": 1469,
    "bakchodi": 1470,
    "sce": 1471,
    "Bryan": 1472,
    "fuck": 1473,
    "bhut": 1474,
    "maza": 1475,
    "job": 1476,
    "many": 1477,
    "king": 1478,
    "thoda": 1479,
    "aajao": 1480,
    "very": 1481,
    "Ve": 1482,
    "kartik": 1483,
    "uu": 1484,
    "baki": 1485,
    "honge": 1486,
    "Than": 1487,
    "Gand": 1488,
    "inter": 1489,
    "Kidhar": 1490,
    "parents": 1491,
    "campus": 1492,
    "vs": 1493,
    "total": 1494,
    "hue": 1495,
    "less": 1496,
    "samajh": 1497,
    "part": 1498,
    "sen": 1499,
    "Isleye": 1500,
    "60": 1501,
    "confir": 1502,
    "@⁨Pranay⁩": 1503,
    "chem": 1504,
    "Au": 1505,
    "crazy": 1506,
    "lect": 1507,
    "hoge": 1508,
    "rand": 1509,
    "altu": 1510,
    "tiya": 1511,
    "code": 1512,
    "ger": 1513,
    "lagega": 1514,
    "easy": 1515,
    "cutoff": 1516,
    "ject": 1517,
    "Hi": 1518,
    "avg": 1519,
    "ow": 1520,
    "Terko": 1521,
    "bt": 1522,
    "chutiye": 1523,
    "lity": 1524,
    "bolta": 1525,
    "bran": 1526,
    "yas": 1527,
    "cas": 1528,
    "br": 1529,
    "company": 1530,
    "skill": 1531,
    "thdi": 1532,
    "spor": 1533,
    "budh": 1534,
    "bhul": 1535,
    "socie": 1536,
    "society": 1537,
    "Abbe": 1538,
    "🥹🥹": 1539,
    "dsa": 1540,
    "list": 1541,
    "ste": 1542,
    "class": 1543,
    "everyone": 1544,
    "rect": 1545,
    "Tho": 1546,
    "paisa": 1547,
    "round": 1548,
    "after": 1549,
    "Aaja": 1550,
    "ass": 1551,
    "too": 1552,
    "Hum": 1553,
    "cre": 1554,
    "hara": 1555,
    "At": 1556,
    "Done": 1557,
    "tara": 1558,
    "ooo": 1559,
    "The": 1560,
    "Pls": 1561,
    "chalu": 1562,
    "possi": 1563,
    "❤️": 1564,
    "uri": 1565,
    "sed": 1566,
    "question": 1567,
    "chiz": 1568,
    "Qu": 1569,
    "tha,": 1570,
    "Konsa": 1571,
    "gery": 1572,
    "jku": 1573,
    "college": 1574,
    "rupay": 1575,
    "hout": 1576,
    "Baa": 1577,
    "itro": 1578,
    "unka": 1579,
    "@⁨all": 1580,
    "@⁨all⁩": 1581,
    "season": 1582,
    "attendance": 1583,
    "quiz": 1584,
    "Any": 1585,
    "n't": 1586,
    "pure": 1587,
    "Roo": 1588,
    "hel": 1589,
    "Nice": 1590,
    ":30": 1591,
    "bacha": 1592,
    "bina": 1593,
    "paper": 1594,
    "course": 1595,
    "baaki": 1596,
    "Fr": 1597,
    "jae": 1598,
    "kat": 1599,
    "Chalo": 1600,
    "sco": 1601,
    "yyyy": 1602,
    "Don": 1603,
    "shit": 1604,
    "possible": 1605,
    "🙏🙏🙏🙏": 1606,
    "lunga": 1607,
    "aadmi": 1608,
    "than": 1609,
    "dum": 1610,
    "Ri": 1611,
    "sli": 1612,
    "see": 1613,
    "problem": 1614,
    "OO": 1615,
    "ach": 1616,
    "jkumari": 1617,
    "uni": 1618,
    "sex": 1619,
    "dro": 1620,
    "nchod": 1621,
    "Usne": 1622,
    "scene": 1623,
    "hiya": 1624,
    "roommate": 1625,
    "chakka": 1626,
    "sabh": 1627,
    "rance": 1628,
    "sikha": 1629,
    "wat": 1630,
    "Ohh": 1631,
    "dekho": 1632,
    "Why": 1633,
    "isko": 1634,
    "type": 1635,
    "shayad": 1636,
    "your": 1637,
    "Soja": 1638,
    "eche": 1639,
    "hag": 1640,
    "solve": 1641,
    "Mo": 1642,
    "auto": 1643,
    "karthik": 1644,
    "dh": 1645,
    "Kaise": 1646,
    "Saare": 1647,
    "dera": 1648,
    "oob": 1649,
    "Kiya": 1650,
    "yes": 1651,
    "haina": 1652,
    "hamare": 1653,
    "33": 1654,
    "try": 1655,
    "gain": 1656,
    "gs": 1657,
    "wed": 1658,
    "kardi": 1659,
    "aya": 1660,
    "abe": 1661,
    "kardo": 1662,
    "karlo": 1663,
    "puri": 1664,
    "des": 1665,
    "Football": 1666,
    "surgery": 1667,
    "chale": 1668,
    "reak": 1669,
    "yenge": 1670,
    "card": 1671,
    "Chi": 1672,
    "rating": 1673,
    "cked": 1674,
    "Lund": 1675,
    "jan": 1676,
    "goal": 1677,
    "ef": 1678,
    "cke": 1679,
    "a-": 1680,
    "9.": 1681,
    "kaafi": 1682,
    "net": 1683,
    "Bud": 1684,
    "branch": 1685,
    "Group": 1686,
    "tice": 1687,
    "isne": 1688,
    "ankh": 1689,
    "😭😭😭😭😭😭😭😭": 1690,
    "jeet": 1691,
    "hamme": 1692,
    "regis": 1693,
    "jah": 1694,
    "intere": 1695,
    "son": 1696,
    "yushmaan": 1697,
    "....": 1698,
    "nor": 1699,
    "btaa": 1700,
    "khana": 1701,
    "kay": 1702,
    "Gu": 1703,
    "masti": 1704,
    "full": 1705,
    "minus": 1706,
    "saha": 1707,
    "extra": 1708,
    "pull": 1709,
    "loda": 1710,
    "Thanks": 1711,
    "duga": 1712,
    "dekhi": 1713,
    "cr": 1714,
    "karliya": 1715,
    "cool": 1716,
    "Id": 1717,
    "unko": 1718,
    "mahi": 1719,
    "mpt": 1720,
    "lun": 1721,
    "Wah": 1722,
    "Gaa": 1723,
    "14": 1724,
    "sticker": 1725,
    "aage": 1726,
    "maths": 1727,
    "aarha": 1728,
    "gpt": 1729,
    "force": 1730,
    "bolte": 1731,
    "dikka": 1732,
    "dikkat": 1733,
    "pd": 1734,
    "vel": 1735,
    "???": 1736,
    "Chutiya": 1737,
    "Man": 1738,
    "St": 1739,
    "wap": 1740,
    "Sad": 1741,
    "aca": 1742,
    "1000": 1743,
    "gandu": 1744,
    "light": 1745,
    "gali": 1746,
    "hau": 1747,
    "Chup": 1748,
    "hojaye": 1749,
    "chahta": 1750,
    "alawa": 1751,
    "hele": 1752,
    "mba": 1753,
    "google": 1754,
    "badi": 1755,
    "bada": 1756,
    "ino": 1757,
    "thaa": 1758,
    "trols": 1759,
    "tic": 1760,
    "milta": 1761,
    "kk": 1762,
    "ekin": 1763,
    "apni": 1764,
    "25": 1765,
    "zar": 1766,
    "wajah": 1767,
    "friend": 1768,
    "dur": 1769,
    "need": 1770,
    "ticket": 1771,
    "eno": 1772,
    "rep": 1773,
    "Room": 1774,
    "mast": 1775,
    "Bata": 1776,
    "laa": 1777,
    "Loda": 1778,
    "sad": 1779,
    "jaaye": 1780,
    "bai": 1781,
    "God": 1782,
    "Av": 1783,
    "dekhte": 1784,
    "mor": 1785,
    "cvr": 1786,
    "hogayi": 1787,
    "count": 1788,
    "rakha": 1789,
    "Accha": 1790,
    "bolra": 1791,
    "nika": 1792,
    "Lode": 1793,
    "dra": 1794,
    "joke": 1795,
    "For": 1796,
    "lmao": 1797,
    "skip": 1798,
    "😊😊": 1799,
    "mid": 1800,
    "clu": 1801,
    "photos": 1802,
    "payega": 1803,
    "sabka": 1804,
    "Wtf": 1805,
    "least": 1806,
    "kre": 1807,
    "iska": 1808,
    "Ran": 1809,
    "Cra": 1810,
    "our": 1811,
    "faltu": 1812,
    "aagya": 1813,
    "idea": 1814,
    "Cg": 1815,
    "Bad": 1816,
    "bhejna": 1817,
    "cial": 1818,
    "bhadwe": 1819,
    "wapis": 1820,
    "ters": 1821,
    "rt": 1822,
    "chakke": 1823,
    "nat": 1824,
    "abo": 1825,
    "Lekin": 1826,
    "sig": 1827,
    "urat": 1828,
    "Sing": 1829,
    "movie": 1830,
    "hare": 1831,
    "muh": 1832,
    "rae": 1833,
    "raemon": 1834,
    "dam": 1835,
    "jagah": 1836,
    "lagana": 1837,
    "ajj": 1838,
    "padha": 1839,
    "sahab": 1840,
    "mum": 1841,
    "expe": 1842,
    "zz": 1843,
    "funny": 1844,
    "ric": 1845,
    "Dono": 1846,
    "lic": 1847,
    "krne": 1848,
    "before": 1849,
    "case": 1850,
    "dou": 1851,
    "cation": 1852,
    "Fi": 1853,
    "Aat": 1854,
    "pm": 1855,
    "Bro": 1856,
    "80": 1857,
    "bheji": 1858,
    "put": 1859,
    "Ruk": 1860,
    "khol": 1861,
    "gg": 1862,
    "insta": 1863,
    "thora": 1864,
    "rahega": 1865,
    "bhaii": 1866,
    "aah": 1867,
    "jaayega": 1868,
    "Dem": 1869,
    "val": 1870,
    "22": 1871,
    "Bits": 1872,
    "dede": 1873,
    "Treat": 1874,
    "dhu": 1875,
    "option": 1876,
    "Pho": 1877,
    "gha": 1878,
    "8.5": 1879,
    "bheja": 1880,
    "fees": 1881,
    "point": 1882,
    "lund": 1883,
    "banana": 1884,
    "Pilani": 1885,
    "luck": 1886,
    "Jal": 1887,
    "delete": 1888,
    "Jeet": 1889,
    "jaate": 1890,
    "ju": 1891,
    "yahi": 1892,
    "dekhne": 1893,
    "buy": 1894,
    "market": 1895,
    "ppe": 1896,
    "Pune": 1897,
    "profit": 1898,
    "GOT": 1899,
    "land": 1900,
    "high": 1901,
    "score": 1902,
    "😘😘": 1903,
    "😨😨": 1904,
    "seri": 1905,
    "able": 1906,
    "An": 1907,
    "which": 1908,
    "haan": 1909,
    "sy": 1910,
    "**": 1911,
    "True": 1912,
    "nn": 1913,
    "kil": 1914,
    "Maza": 1915,
    "Hmmm": 1916,
    "Baat": 1917,
    "90": 1918,
    "gee": 1919,
    "issu": 1920,
    "date": 1921,
    "Sorry": 1922,
    "How": 1923,
    "much": 1924,
    "ppr": 1925,
    "mis": 1926,
    "kese": 1927,
    "iske": 1928,
    "haa": 1929,
    "maj": 1930,
    "win": 1931,
    "led": 1932,
    "him": 1933,
    "jaana": 1934,
    ">>": 1935,
    "asis": 1936,
    "rupe": 1937,
    "ded": 1938,
    "konsa": 1939,
    "kb": 1940,
    "27": 1941,
    "how": 1942,
    "Isko": 1943,
    "add": 1944,
    "lec": 1945,
    "sma": 1946,
    "Ad": 1947,
    "nice": 1948,
    "degree": 1949,
    "naya": 1950,
    "ndi": 1951,
    "bsite": 1952,
    "ult": 1953,
    "bura": 1954,
    "preference": 1955,
    "nts": 1956,
    "kahi": 1957,
    "mummy": 1958,
    "mins": 1959,
    "lar": 1960,
    "Crazy": 1961,
    "ana": 1962,
    "pakka": 1963,
    "baith": 1964,
    "bataya": 1965,
    "...": 1966,
    "mode": 1967,
    "cken": 1968,
    "gera": 1969,
    "lelo": 1970,
    "lak": 1971,
    "saale": 1972,
    "unhone": 1973,
    "mc": 1974,
    "mnc": 1975,
    "fix": 1976,
    "stand": 1977,
    "Chud": 1978,
    "Jaldi": 1979,
    "lagaya": 1980,
    "phele": 1981,
    "choice": 1982,
    "tual": 1983,
    "SI": 1984,
    "sum": 1985,
    "jeete": 1986,
    "goat": 1987,
    "cord": 1988,
    "😂😂😂😂😂😂😂😂😂😂😂😂😂😂😂😂😂😂😂😂😂😂😂😂😂😂😂😂😂😂😂😂": 1989,
    "1300": 1990,
    "Konsi": 1991,
    "delhi": 1992,
    "est": 1993,
    "bla": 1994,
    "tha?": 1995,
    "sp": 1996,
    "Mid": 1997,
    "Obv": 1998,
    "udhar": 1999,
    "ic": 2000,
    "hee": 2001,
    "dif": 2002,
    "god": 2003,
    "krr": 2004,
    "ea": 2005,
    "today": 2006,
    "lf": 2007,
    "train": 2008,
    "Mail": 2009,
    "I'": 2010,
    "ghus": 2011,
    "Bio": 2012,
    "chle": 2013,
    "45": 2014,
    "cept": 2015,
    "Ka": 2016,
    "wd": 2017,
    "Aare": 2018,
    "let": 2019,
    "Chem": 2020,
    "kl": 2021,
    "over": 2022,
    "Aatman": 2023,
    "behen": 2024,
    "Ne": 2025,
    "confirm": 2026,
    "bolo": 2027,
    "19": 2028,
    "krta": 2029,
    "iiii": 2030,
    "Uski": 2031,
    "bande": 2032,
    "mesha": 2033,
    "heat": 2034,
    "ority": 2035,
    "would": 2036,
    "still": 2037,
    "comm": 2038,
    "HAI": 2039,
    "gf": 2040,
    "zor": 2041,
    "Kyuki": 2042,
    "rated": 2043,
    "IIT": 2044,
    "nta": 2045,
    "car": 2046,
    "break": 2047,
    "eee": 2048,
    "bhag": 2049,
    "Poo": 2050,
    "kaar": 2051,
    "baate": 2052,
    "ghante": 2053,
    "roomate": 2054,
    "banda": 2055,
    "Catan": 2056,
    "drop": 2057,
    "khelta": 2058,
    "tr": 2059,
    "rela": 2060,
    "sr": 2061,
    "chara": 2062,
    "cse": 2063,
    "ris": 2064,
    "tually": 2065,
    "aam": 2066,
    "hata": 2067,
    "karege": 2068,
    "dri": 2069,
    "level": 2070,
    "atta": 2071,
    "kari": 2072,
    "sharam": 2073,
    "unke": 2074,
    "sports": 2075,
    "Good": 2076,
    "bit": 2077,
    "⠄⠄⠄⠄": 2078,
    "llar": 2079,
    "goa": 2080,
    "compar": 2081,
    "haha": 2082,
    "satta": 2083,
    "dream": 2084,
    "32": 2085,
    "13": 2086,
    "does": 2087,
    "wal": 2088,
    "batao": 2089,
    "me?": 2090,
    "Kartik": 2091,
    "ushkil": 2092,
    "aayushman": 2093,
    "defe": 2094,
    "tem": 2095,
    "ror": 2096,
    "hogaye": 2097,
    "mini": 2098,
    "beech": 2099,
    "guys": 2100,
    "Gaya": 2101,
    "Last": 2102,
    "pahu": 2103,
    "konsi": 2104,
    "laya": 2105,
    "chuka": 2106,
    "oc": 2107,
    "sir": 2108,
    "andar": 2109,
    "Itni": 2110,
    "mean": 2111,
    "rehna": 2112,
    "double": 2113,
    "les": 2114,
    "gene": 2115,
    "Dis": 2116,
    "rupees": 2117,
    "midsem": 2118,
    "Padh": 2119,
    "kiye": 2120,
    "bach": 2121,
    "vese": 2122,
    "exam": 2123,
    "law": 2124,
    "condu": 2125,
    "uda": 2126,
    "utna": 2127,
    "when": 2128,
    "Raat": 2129,
    "baj": 2130,
    "Nan": 2131,
    "cake": 2132,
    "saab": 2133,
    "sort": 2134,
    "Ti": 2135,
    "zi": 2136,
    "ghanta": 2137,
    "gb": 2138,
    "khela": 2139,
    "vapas": 2140,
    "undro": 2141,
    "vm": 2142,
    "block": 2143,
    "games": 2144,
    "Star": 2145,
    "banaya": 2146,
    "kah": 2147,
    "fect": 2148,
    "dard": 2149,
    "order": 2150,
    "offi": 2151,
    "nav": 2152,
    "khele": 2153,
    "bn": 2154,
    "craft": 2155,
    "bhenge": 2156,
    "mahine": 2157,
    "sidha": 2158,
    "Like": 2159,
    "ling": 2160,
    "hig": 2161,
    "aaraha": 2162,
    "server": 2163,
    "yr": 2164,
    "vyas": 2165,
    "betting": 2166,
    "div": 2167,
    "Ram": 2168,
    "konse": 2169,
    "ho?": 2170,
    "Isliye": 2171,
    "body": 2172,
    "sted": 2173,
    "ving": 2174,
    "share": 2175,
    "person": 2176,
    "dala": 2177,
    "give": 2178,
    "aree": 2179,
    "enough": 2180,
    "normal": 2181,
    "kuchh": 2182,
    "bho": 2183,
    "pade": 2184,
    "peeche": 2185,
    "ID": 2186,
    "Okay": 2187,
    "mit": 2188,
    "diff": 2189,
    "rong": 2190,
    "chap": 2191,
    "cad": 2192,
    "bday": 2193,
    "gay": 2194,
    "ute": 2195,
    "????": 2196,
    "-2": 2197,
    "issue": 2198,
    "dom": 2199,
    "jaati": 2200,
    "turn": 2201,
    "Pre": 2202,
    "care": 2203,
    "tre": 2204,
    "jaane": 2205,
    "sider": 2206,
    "again": 2207,
    "ward": 2208,
    "sle": 2209,
    "guess": 2210,
    "poho": 2211,
    "why": 2212,
    "Gaand": 2213,
    "29": 2214,
    "scam": 2215,
    "ual": 2216,
    "serve": 2217,
    "dho": 2218,
    "Ni": 2219,
    "waalo": 2220,
    "tory": 2221,
    "it's": 2222,
    "Sabko": 2223,
    "kisine": 2224,
    "phy": 2225,
    "elect": 2226,
    "did": 2227,
    "random": 2228,
    "actly": 2229,
    "conduct": 2230,
    "Sam": 2231,
    "os": 2232,
    "forces": 2233,
    "website": 2234,
    "under": 2235,
    "saara": 2236,
    "jin": 2237,
    "vote": 2238,
    "loge": 2239,
    "Photo": 2240,
    "Sem": 2241,
    "chance": 2242,
    "chut": 2243,
    "Comp": 2244,
    "half": 2245,
    "ulti": 2246,
    "player": 2247,
    "mem": 2248,
    "member": 2249,
    "month": 2250,
    "ganda": 2251,
    "chicken": 2252,
    "Dar": 2253,
    "ptaa": 2254,
    "SA": 2255,
    "BIT": 2256,
    "Ke": 2257,
    "yar": 2258,
    "interest": 2259,
    "scho": 2260,
    "tc": 2261,
    "rain": 2262,
    "prac": 2263,
    "kan": 2264,
    "suna": 2265,
    "Wohi": 2266,
    "cf": 2267,
    "Cs": 2268,
    "kahan": 2269,
    "sap": 2270,
    "rang": 2271,
    "diyaa": 2272,
    "Laga": 2273,
    "obv": 2274,
    "uine": 2275,
    "cess": 2276,
    "maag": 2277,
    "warden": 2278,
    "gam": 2279,
    "Hij": 2280,
    "dollar": 2281,
    "things": 2282,
    "badhiya": 2283,
    "about": 2284,
    "gir": 2285,
    "lie": 2286,
    "register": 2287,
    "lan": 2288,
    "herlock": 2289,
    "sheet": 2290,
    "cel": 2291,
    "sm": 2292,
    "event": 2293,
    "Singhal": 2294,
    "Singhal⁩": 2295,
    "jayege": 2296,
    "yone": 2297,
    "questions": 2298,
    "direct": 2299,
    "zza": 2300,
    "ladle": 2301,
    "bkl": 2302,
    "kisiko": 2303,
    "madar": 2304,
    "true": 2305,
    "Guys": 2306,
    "Please": 2307,
    "3-": 2308,
    "mushkil": 2309,
    "soft": 2310,
    "ink": 2311,
    "Chalega": 2312,
    "dedo": 2313,
    "kaat": 2314,
    "Sach": 2315,
    "jaega": 2316,
    "redi": 2317,
    "there": 2318,
    "padhai": 2319,
    "doraemon": 2320,
    "Achi": 2321,
    "account": 2322,
    "uspe": 2323,
    "Da": 2324,
    "aye": 2325,
    "charac": 2326,
    "Lag": 2327,
    "Im": 2328,
    "Mil": 2329,
    "Oo": 2330,
    "samjha": 2331,
    "yrr": 2332,
    "lagi": 2333,
    "sare": 2334,
    "Soch": 2335,
    "Ja": 2336,
    "mical": 2337,
    "buil": 2338,
    "bor": 2339,
    "ned": 2340,
    "boo": 2341,
    "bot": 2342,
    "grading": 2343,
    "Aar": 2344,
    "Hamare": 2345,
    "💔💔": 2346,
    "Bak": 2347,
    "left": 2348,
    "sup": 2349,
    "Tut": 2350,
    "iski": 2351,
    "cally": 2352,
    "istor": 2353,
    "qn": 2354,
    "dekhle": 2355,
    "Kyun": 2356,
    "ins": 2357,
    "mag": 2358,
    "jitna": 2359,
    "maybe": 2360,
    "khelenge": 2361,
    "bhav": 2362,
    "Teko": 2363,
    "baare": 2364,
    "karre": 2365,
    "waste": 2366,
    "file": 2367,
    "Mi": 2368,
    "scree": 2369,
    "ekdum": 2370,
    "Mad": 2371,
    "yaha": 2372,
    "reach": 2373,
    "talb": 2374,
    "Only": 2375,
    "ghum": 2376,
    "hand": 2377,
    "pde": 2378,
    "spoil": 2379,
    "aayegi": 2380,
    "hila": 2381,
    "😋😋": 2382,
    "lore": 2383,
    "vir": 2384,
    "varna": 2385,
    "jhse": 2386,
    "khelege": 2387,
    "mang": 2388,
    "io": 2389,
    "adv": 2390,
    "larship": 2391,
    "leave": 2392,
    "yda": 2393,
    "bolde": 2394,
    "sing": 2395,
    "1.5": 2396,
    "Mech": 2397,
    "mech": 2398,
    "without": 2399,
    "keh": 2400,
    "blic": 2401,
    "skta": 2402,
    "allo": 2403,
    "😱😱": 2404,
    "med": 2405,
    "kee": 2406,
    "clg": 2407,
    "task": 2408,
    "haar": 2409,
    "secon": 2410,
    "31st": 2411,
    "Arnav": 2412,
    "wait": 2413,
    "Pns": 2414,
    "paar": 2415,
    "hij": 2416,
    "skills": 2417,
    "say": 2418,
    "Bhenge": 2419,
    "Ez": 2420,
    "Papa": 2421,
    "Budh": 2422,
    "jaan": 2423,
    "ses": 2424,
    "ways": 2425,
    "clo": 2426,
    "deep": 2427,
    "long": 2428,
    "bso": 2429,
    "bsoc": 2430,
    "uly": 2431,
    "ssion": 2432,
    "lera": 2433,
    "aarhe": 2434,
    "PS": 2435,
    "If": 2436,
    "hisar": 2437,
    "bje": 2438,
    "almost": 2439,
    "sand": 2440,
    "pizza": 2441,
    "tb": 2442,
    "reply": 2443,
    "Midsem": 2444,
    "perso": 2445,
    "His": 2446,
    "Hisar": 2447,
    "Maths": 2448,
    "GA": 2449,
    "hog": 2450,
    "view": 2451,
    "Wow": 2452,
    "credit": 2453,
    "2-3": 2454,
    "bkc": 2455,
    "Shan": 2456,
    "Kisne": 2457,
    "gang": 2458,
    "Who": 2459,
    "gp": 2460,
    "diyo": 2461,
    "daalna": 2462,
    "lagra": 2463,
    "70": 2464,
    "Red": 2465,
    "aao": 2466,
    "mas": 2467,
    "kro": 2468,
    "tm": 2469,
    "Sma": 2470,
    "week": 2471,
    "aayenge": 2472,
    "18": 2473,
    "Muh": 2474,
    "bahot": 2475,
    "psnd": 2476,
    "club": 2477,
    "chho": 2478,
    "seniors": 2479,
    "thike": 2480,
    "easi": 2481,
    "tia": 2482,
    "gge": 2483,
    "other": 2484,
    "consider": 2485,
    "Exactly": 2486,
    "conta": 2487,
    "saala": 2488,
    "open": 2489,
    "Link": 2490,
    "study": 2491,
    "bajje": 2492,
    "Poker": 2493,
    "jake": 2494,
    "krte": 2495,
    "marega": 2496,
    "Send": 2497,
    "rajkumari": 2498,
    "hunga": 2499,
    "disc": 2500,
    "My": 2501,
    "krke": 2502,
    "niche": 2503,
    "Mast": 2504,
    "Very": 2505,
    "peti": 2506,
    "krde": 2507,
    "b-": 2508,
    "vaca": 2509,
    "shant": 2510,
    "hhh": 2511,
    "emo": 2512,
    "Anyway": 2513,
    "bryan": 2514,
    "hyd": 2515,
    "sense": 2516,
    "fr": 2517,
    "HH": 2518,
    "galti": 2519,
    "tough": 2520,
    "1.": 2521,
    "flight": 2522,
    "something": 2523,
    "fina": 2524,
    "save": 2525,
    "months": 2526,
    "dosto": 2527,
    "Bana": 2528,
    "fayda": 2529,
    "beta": 2530,
    "bhenchod": 2531,
    "Chakka": 2532,
    "cen": 2533,
    "plot": 2534,
    "backchodi": 2535,
    "aajana": 2536,
    "dm": 2537,
    "green": 2538,
    "BA": 2539,
    "haf": 2540,
    "meet": 2541,
    "Oye": 2542,
    "Quant": 2543,
    "fy": 2544,
    "help": 2545,
    "feel": 2546,
    "bow": 2547,
    "run": 2548,
    "samne": 2549,
    "++": 2550,
    "Samajh": 2551,
    "dimaag": 2552,
    "Of": 2553,
    "Bhenga": 2554,
    "hojayegi": 2555,
    "eco": 2556,
    "tio": 2557,
    "jeeta": 2558,
    "jeetegi": 2559,
    "players": 2560,
    "manje": 2561,
    "acche": 2562,
    "compani": 2563,
    "🛐🛐": 2564,
    "pair": 2565,
    "basi": 2566,
    "where": 2567,
    "suit": 2568,
    "karu": 2569,
    "cancel": 2570,
    "their": 2571,
    "NA": 2572,
    "Galat": 2573,
    "dusre": 2574,
    "khaya": 2575,
    "sorry": 2576,
    "tumhare": 2577,
    "krlo": 2578,
    "tumne": 2579,
    "night": 2580,
    "far": 2581,
    "madarchod": 2582,
    "name": 2583,
    "pra": 2584,
    "avy": 2585,
    "abhi?": 2586,
    "thermo": 2587,
    "rakhi": 2588,
    "answer": 2589,
    "💀💀": 2590,
    "Aks": 2591,
    "autocad": 2592,
    "sach": 2593,
    "sar": 2594,
    "ystem": 2595,
    "error": 2596,
    "fully": 2597,
    "Isi": 2598,
    "Waha": 2599,
    "Noob": 2600,
    "CV": 2601,
    "CVR": 2602,
    "abh": 2603,
    "kill": 2604,
    "paunga": 2605,
    "character": 2606,
    "I'm": 2607,
    "banega": 2608,
    "Mt": 2609,
    "Mtlb": 2610,
    "sakti": 2611,
    "ori": 2612,
    "hor": 2613,
    "calc": 2614,
    "Free": 2615,
    "Idhar": 2616,
    "info": 2617,
    "Bahut": 2618,
    "dc": 2619,
    "ast": 2620,
    "krna": 2621,
    "plss": 2622,
    "CA": 2623,
    "kul": 2624,
    "chl": 2625,
    "dian": 2626,
    "bhejde": 2627,
    "nikalte": 2628,
    "kshas": 2629,
    "inte": 2630,
    "26": 2631,
    "23": 2632,
    "karts": 2633,
    "💦💦": 2634,
    "sugge": 2635,
    "pat": 2636,
    "Cri": 2637,
    "slides": 2638,
    "Wait": 2639,
    "Code": 2640,
    "Puri": 2641,
    "famil": 2642,
    "family": 2643,
    "ezy": 2644,
    "jay": 2645,
    "peop": 2646,
    "people": 2647,
    "krega": 2648,
    "complete": 2649,
    "unhe": 2650,
    "Pl": 2651,
    "Rajkumari": 2652,
    "jaisa": 2653,
    "Topper": 2654,
    "cted": 2655,
    "cab": 2656,
    "big": 2657,
    "Naa": 2658,
    "price": 2659,
    "fire": 2660,
    "soo": 2661,
    "ES": 2662,
    "pada": 2663,
    "llow": 2664,
    "cut": 2665,
    "🥲🥲🥲🥲": 2666,
    "Mar": 2667,
    "sabki": 2668,
    "hamesha": 2669,
    "vacation": 2670,
    "Or": 2671,
    "bolega": 2672,
    "bole": 2673,
    "unse": 2674,
    "ctive": 2675,
    "tk": 2676,
    "leliya": 2677,
    "Per": 2678,
    "hogyaa": 2679,
    "zia": 2680,
    "ziabad": 2681,
    "34": 2682,
    "wagera": 2683,
    "bolne": 2684,
    "milna": 2685,
    "hamara": 2686,
    "akele": 2687,
    "900": 2688,
    "tin": 2689,
    "scholarship": 2690,
    "Coo": 2691,
    "Raha": 2692,
    "lagwa": 2693,
    "Bhenchod": 2694,
    "dvm": 2695,
    "tw": 2696,
    "tration": 2697,
    "kanpur": 2698,
    "baatein": 2699,
    "competi": 2700,
    "Actually": 2701,
    "practice": 2702,
    "ton": 2703,
    "aag": 2704,
    "waha": 2705,
    "pns": 2706,
    "kisko": 2707,
    "Bola": 2708,
    "Ghan": 2709,
    "Ghanta": 2710,
    "hafte": 2711,
    "😂😂😂😂😂": 2712,
    "reed": 2713,
    "unior": 2714,
    "chaap": 2715,
    "gaandu": 2716,
    "brary": 2717,
    "dimag": 2718,
    "bhejdo": 2719,
    "ps2": 2720,
    "public": 2721,
    "swit": 2722,
    "ww": 2723,
    "Cas": 2724,
    "age": 2725,
    "marne": 2726,
    "vil": 2727,
    "tifi": 2728,
    "Controls": 2729,
    "⣿⣿⣿⣿⣿⣿⣿⣿": 2730,
    "bolre": 2731,
    "sure": 2732,
    "ctor": 2733,
    "lagane": 2734,
    "gr": 2735,
    "snow": 2736,
    "companies": 2737,
    "compared": 2738,
    "Lap": 2739,
    "Laptop": 2740,
    "coding": 2741,
    "tier": 2742,
    "bhagwan": 2743,
    "tup": 2744,
    "hai💀": 2745,
    "even": 2746,
    "Game": 2747,
    "pin": 2748
}